#ifndef SINE_MODEL_H
#define SINE_MODEL_H


unsigned int sine_model_len = 2532;
unsigned char sine_model[] = {
 0x08, 0x00, 0x00, 0x00, 0x54, 0x46, 0x4c, 0x33, 0x32, 0xfa, 0xff, 0xff,
  0x03, 0x00, 0x00, 0x00, 0xb4, 0x09, 0x00, 0x00, 0xb8, 0x05, 0x00, 0x00,
  0xa0, 0x05, 0x00, 0x00, 0x04, 0x00, 0x00, 0x00, 0x0b, 0x00, 0x00, 0x00,
  0x90, 0x05, 0x00, 0x00, 0x88, 0x05, 0x00, 0x00, 0x38, 0x05, 0x00, 0x00,
  0xe0, 0x04, 0x00, 0x00, 0xcc, 0x04, 0x00, 0x00, 0x7c, 0x04, 0x00, 0x00,
  0x6c, 0x00, 0x00, 0x00, 0x1c, 0x00, 0x00, 0x00, 0x14, 0x00, 0x00, 0x00,
  0x0c, 0x00, 0x00, 0x00, 0x04, 0x00, 0x00, 0x00, 0xb0, 0xf6, 0xff, 0xff,
  0xb4, 0xf6, 0xff, 0xff, 0xb8, 0xf6, 0xff, 0xff, 0xfe, 0xfa, 0xff, 0xff,
  0x04, 0x00, 0x00, 0x00, 0x40, 0x00, 0x00, 0x00, 0x69, 0xa6, 0xea, 0x3e,
  0xc8, 0x72, 0x91, 0xbf, 0x33, 0xaa, 0xc2, 0x3f, 0x8e, 0xec, 0x4f, 0x3e,
  0xf9, 0x58, 0x5f, 0x3e, 0x74, 0x16, 0x4c, 0xbf, 0x42, 0xda, 0x9f, 0xbe,
  0x17, 0xf2, 0x0e, 0x3e, 0x06, 0x19, 0xa3, 0x3e, 0xb9, 0xa8, 0xfa, 0x3e,
  0x96, 0xbd, 0x0b, 0xbf, 0x07, 0xdd, 0xb5, 0xbe, 0xdd, 0x30, 0x7d, 0xbf,
  0xec, 0xf1, 0x8a, 0xbe, 0x5c, 0xa8, 0x0c, 0xbf, 0xea, 0x3a, 0x8c, 0x3f,
  0x4a, 0xfb, 0xff, 0xff, 0x04, 0x00, 0x00, 0x00, 0x00, 0x04, 0x00, 0x00,
  0xfe, 0x94, 0xc4, 0xbe, 0x01, 0x8f, 0x82, 0x3e, 0x4d, 0x92, 0xdc, 0x3e,
  0x25, 0xc9, 0xd6, 0x3e, 0x17, 0x32, 0x05, 0x3e, 0xc5, 0x47, 0xb7, 0x3e,
  0x87, 0x0e, 0x64, 0xbd, 0x5a, 0xba, 0x03, 0x3e, 0xc1, 0x68, 0xaf, 0x3e,
  0x79, 0xac, 0x65, 0x3e, 0xe1, 0x79, 0xad, 0x3e, 0x86, 0x7a, 0x56, 0x3e,
  0xae, 0x97, 0x07, 0x3e, 0x4e, 0xbe, 0xc3, 0x3d, 0xb3, 0x48, 0x8d, 0x3e,
  0x9a, 0x92, 0x5a, 0x3e, 0x00, 0xf9, 0xd0, 0xbb, 0xde, 0x4d, 0x35, 0x3e,
  0x1c, 0xc6, 0xa5, 0x3d, 0xbe, 0x4b, 0xcb, 0xbe, 0x8f, 0xe6, 0x31, 0xbf,
  0x98, 0x36, 0x2a, 0x3d, 0xc7, 0x2b, 0xcb, 0x3e, 0xfd, 0xe0, 0x20, 0x3d,
  0xb8, 0xb1, 0x43, 0xbd, 0x4b, 0x7b, 0x04, 0xbe, 0x8a, 0x90, 0xc2, 0xbe,
  0x84, 0x38, 0xeb, 0xbd, 0xda, 0xd7, 0x5e, 0x3e, 0x00, 0xce, 0xa7, 0xbe,
  0x95, 0xff, 0x06, 0xbf, 0x61, 0xfb, 0x87, 0x3e, 0xbe, 0x7a, 0x8b, 0xbe,
  0x4a, 0x95, 0x25, 0x3e, 0xd0, 0x4c, 0xcc, 0x3c, 0x84, 0x7c, 0xee, 0xbd,
  0xee, 0x34, 0x08, 0x3c, 0xb0, 0xdc, 0xe8, 0xbd, 0x4c, 0xe8, 0xa9, 0x3e,
  0x6e, 0xf2, 0x02, 0x3f, 0xa6, 0x0d, 0xd9, 0xbe, 0x4d, 0x98, 0x33, 0xbf,
  0x1f, 0xb4, 0xb7, 0x3d, 0x26, 0xc2, 0x26, 0xbf, 0xce, 0xb9, 0x62, 0xbe,
  0xda, 0xb8, 0x9c, 0xbf, 0x03, 0x0b, 0xbb, 0xbd, 0xf0, 0xb5, 0x62, 0xbe,
  0x4b, 0x32, 0x8e, 0x3e, 0x25, 0x41, 0x63, 0xbd, 0x60, 0xb9, 0x9d, 0x3c,
  0x15, 0xcd, 0x61, 0xbe, 0xc9, 0x1e, 0x91, 0x3e, 0xfc, 0xcf, 0xd7, 0x3d,
  0xe8, 0x62, 0x96, 0x3e, 0xe0, 0xd3, 0x8a, 0x3d, 0x7c, 0x53, 0xa2, 0x3d,
  0x6e, 0x17, 0x33, 0xbd, 0xa0, 0xfd, 0xbe, 0xbe, 0xa9, 0x25, 0x3a, 0x3e,
  0x25, 0xc9, 0xbf, 0x3e, 0x48, 0xd9, 0x47, 0x3e, 0x88, 0x95, 0xae, 0x3e,
  0xc0, 0x39, 0xba, 0xbb, 0xb8, 0x4d, 0x72, 0xbd, 0xb6, 0x56, 0x5f, 0x3e,
  0x28, 0xa2, 0xca, 0xbd, 0x01, 0x85, 0xd2, 0x3e, 0x7a, 0xa1, 0x1b, 0xbe,
  0x34, 0x44, 0xc3, 0xbe, 0x17, 0x4e, 0x99, 0x3e, 0x97, 0x5c, 0x81, 0x3e,
  0xc4, 0x32, 0xcc, 0xbe, 0x4b, 0x59, 0xb3, 0xbe, 0x41, 0x76, 0xb0, 0x3e,
  0x38, 0x7a, 0xa6, 0xbb, 0xc0, 0x77, 0x0e, 0x3c, 0x4a, 0xe2, 0x2d, 0x3e,
  0x7f, 0x69, 0x0d, 0x3e, 0x9d, 0x0e, 0xba, 0x3e, 0xd8, 0x69, 0x9a, 0xbd,
  0xb8, 0x8b, 0x54, 0x3d, 0x30, 0xa3, 0x18, 0xbd, 0x64, 0x79, 0x8a, 0xbd,
  0x30, 0xc2, 0x8f, 0xbd, 0xe6, 0x17, 0x5a, 0x3e, 0x5b, 0xf4, 0x86, 0x3e,
  0x9e, 0x49, 0xad, 0x3e, 0x30, 0x8e, 0xbb, 0xbc, 0xad, 0x27, 0x3e, 0xbf,
  0x37, 0x7b, 0x09, 0xbf, 0xf1, 0x92, 0x46, 0xbf, 0xfe, 0xb1, 0x58, 0x3e,
  0x20, 0xd4, 0xe0, 0xbe, 0x7c, 0x29, 0xdb, 0xbe, 0x34, 0x23, 0xc5, 0x3d,
  0x5b, 0x7c, 0x94, 0x3e, 0xa5, 0xe7, 0xdb, 0x3e, 0x42, 0x99, 0x84, 0xbe,
  0xbc, 0x82, 0x24, 0xbe, 0x69, 0xb1, 0xb0, 0x3d, 0x22, 0x1f, 0x4f, 0x3e,
  0xa6, 0x81, 0xdc, 0xbd, 0x25, 0x9b, 0x7f, 0xbe, 0xe9, 0x32, 0xdd, 0x3e,
  0xe3, 0xb8, 0x1b, 0x3e, 0xce, 0xdb, 0x98, 0x3e, 0x93, 0xe8, 0x96, 0x3e,
  0x80, 0xd0, 0x19, 0x3c, 0x36, 0x24, 0x0d, 0xbf, 0x43, 0x57, 0x88, 0xbe,
  0x28, 0xdc, 0xd7, 0xbd, 0x17, 0xf7, 0x43, 0xbe, 0x40, 0x7a, 0x5d, 0x3c,
  0x58, 0x6c, 0x37, 0x3d, 0xfb, 0xb9, 0xbd, 0x3e, 0xbd, 0xa0, 0x41, 0xbc,
  0xe0, 0x06, 0x55, 0x3c, 0xae, 0x05, 0xaa, 0xbe, 0xd7, 0x0a, 0x96, 0x3e,
  0x2c, 0xa4, 0x91, 0x3d, 0x05, 0x1e, 0xe9, 0xbe, 0x02, 0x37, 0xc7, 0x3e,
  0x5f, 0x1f, 0x4f, 0x3e, 0xb0, 0xb6, 0xa0, 0x3c, 0x50, 0x39, 0xf5, 0xbd,
  0x41, 0xb1, 0x9e, 0xbe, 0x3e, 0x65, 0x30, 0xbe, 0x00, 0x68, 0x1a, 0x3c,
  0xfa, 0x6c, 0xd7, 0xbd, 0x76, 0x1c, 0x52, 0x3e, 0x86, 0x23, 0x24, 0x3e,
  0x86, 0x66, 0xef, 0x3d, 0xa4, 0xd6, 0xcf, 0x3d, 0xaa, 0x24, 0xb4, 0x3e,
  0x48, 0x8c, 0x5d, 0x3d, 0x50, 0xb9, 0xc9, 0xbe, 0x58, 0xdc, 0xa2, 0xbe,
  0x08, 0xb2, 0x0f, 0xbd, 0xd9, 0xc2, 0x29, 0x3e, 0x56, 0x25, 0x0a, 0x3e,
  0x7f, 0xc7, 0xfb, 0x3e, 0xee, 0xb2, 0xfb, 0xbd, 0x5e, 0x5a, 0x5a, 0x3e,
  0xc0, 0xa7, 0x23, 0x3c, 0x9a, 0xfa, 0x75, 0x3d, 0x87, 0xbb, 0x9a, 0x3e,
  0xd0, 0x67, 0xf3, 0xbc, 0x1a, 0x42, 0x33, 0x3e, 0xc4, 0x61, 0xab, 0xbe,
  0xfb, 0x82, 0xa6, 0xbe, 0xef, 0x09, 0x8d, 0xbe, 0xe2, 0x5c, 0x29, 0xbe,
  0xf0, 0x5d, 0x3e, 0x3d, 0xdc, 0xc2, 0xa8, 0x3c, 0xf5, 0xe9, 0xbc, 0x3e,
  0x58, 0x5d, 0x23, 0x3d, 0x28, 0x62, 0x06, 0x3d, 0x97, 0x0e, 0x61, 0x3d,
  0xc8, 0x31, 0x87, 0xbd, 0x4c, 0x00, 0xff, 0x3d, 0xf3, 0xce, 0x48, 0xbd,
  0xf5, 0x67, 0xc6, 0xbe, 0xec, 0x7e, 0xb2, 0x3d, 0xe8, 0x78, 0xe8, 0x3e,
  0x7b, 0xe1, 0x8f, 0x3e, 0x9a, 0x3d, 0x04, 0xbd, 0xe2, 0x0c, 0x8d, 0x3e,
  0x13, 0x69, 0xb5, 0x3e, 0xba, 0x60, 0x87, 0x3e, 0xbc, 0x57, 0xce, 0x3e,
  0x09, 0x28, 0xfb, 0xbe, 0x68, 0x13, 0x8f, 0xbe, 0xa8, 0xe6, 0x41, 0xbd,
  0x61, 0x7c, 0xb7, 0xbe, 0x6f, 0xb5, 0x82, 0x3e, 0x26, 0x5b, 0xc2, 0xbe,
  0xb0, 0x3c, 0xbf, 0xbd, 0xee, 0x53, 0x0f, 0xbe, 0x40, 0x1e, 0x10, 0xbe,
  0x4b, 0x9e, 0xda, 0xbe, 0x81, 0x1a, 0x8b, 0x3e, 0x3a, 0xc9, 0x04, 0xbe,
  0x06, 0xf4, 0x8c, 0x3b, 0xb8, 0x92, 0x35, 0x3d, 0xa6, 0xd6, 0x89, 0xbd,
  0xd6, 0x6f, 0xa5, 0x3e, 0x26, 0x8d, 0xbb, 0x3e, 0x24, 0x26, 0x70, 0xbe,
  0x61, 0xbe, 0x14, 0x3e, 0x02, 0x40, 0xa2, 0x3c, 0x8a, 0x69, 0x4e, 0x3e,
  0x27, 0x38, 0x9d, 0x3e, 0x4b, 0x23, 0xd2, 0xbe, 0xfe, 0xbe, 0x90, 0xbe,
  0x30, 0xf2, 0xcc, 0xbe, 0x27, 0xc1, 0x03, 0xbf, 0x74, 0xa7, 0x9b, 0xbe,
  0xc3, 0x94, 0xd0, 0x3e, 0x8a, 0xfe, 0x00, 0x3f, 0x14, 0x60, 0xb9, 0xbe,
  0x75, 0x66, 0x94, 0xbe, 0xe9, 0x17, 0x1b, 0xbf, 0xd2, 0x85, 0xdf, 0xbd,
  0x72, 0x16, 0xcc, 0xbe, 0x8d, 0x25, 0x98, 0x3c, 0x2e, 0x47, 0xcf, 0xbe,
  0xcb, 0xe0, 0xa7, 0x3e, 0x25, 0x05, 0xc8, 0x3e, 0x1e, 0xad, 0x85, 0xbd,
  0xe0, 0x68, 0x77, 0x3d, 0xe0, 0xa4, 0x6d, 0x3d, 0x9a, 0x33, 0xbf, 0x3d,
  0x7f, 0xa1, 0xad, 0x3e, 0x57, 0xf2, 0x10, 0x3c, 0xce, 0x46, 0x11, 0x3e,
  0x12, 0x8a, 0x21, 0x3e, 0xd7, 0x2c, 0x9f, 0xbb, 0x2a, 0x34, 0xf4, 0x3e,
  0x30, 0xa6, 0x8d, 0x3e, 0xe2, 0xe1, 0xab, 0xbe, 0xc9, 0xd2, 0xcc, 0xbc,
  0x3c, 0x25, 0xe5, 0x3d, 0x9a, 0x44, 0x27, 0x3e, 0x89, 0xaa, 0xd9, 0x3e,
  0x8b, 0xbe, 0xa6, 0xbe, 0xcd, 0x7f, 0xaa, 0x3e, 0x05, 0xd3, 0xbe, 0x3e,
  0xb9, 0x20, 0xd4, 0x3e, 0x63, 0x8e, 0xa2, 0x3e, 0x25, 0x06, 0xf2, 0x3d,
  0xb3, 0xf1, 0x09, 0x3e, 0x14, 0xf1, 0x85, 0x3d, 0xdc, 0xa4, 0x17, 0xbe,
  0xb8, 0x29, 0xed, 0x3e, 0x95, 0x77, 0xc3, 0xbe, 0x20, 0xde, 0x7d, 0x3d,
  0x65, 0xa2, 0xf2, 0xbe, 0x77, 0x1a, 0x81, 0xbe, 0x96, 0x97, 0x12, 0x3e,
  0x3d, 0x1d, 0xb7, 0x3e, 0x07, 0x7d, 0x4a, 0xbe, 0xc3, 0x4e, 0xa2, 0xbe,
  0x80, 0x1f, 0x0d, 0x3c, 0x1c, 0xfc, 0xb7, 0x3d, 0xa0, 0xb7, 0x93, 0xbc,
  0x52, 0x08, 0x3c, 0x3c, 0x84, 0x35, 0x87, 0xbd, 0x97, 0xff, 0x90, 0x3e,
  0xc5, 0xf1, 0x62, 0xbd, 0x09, 0x67, 0xa6, 0xbd, 0x9d, 0x7c, 0x0b, 0xbe,
  0x00, 0x2c, 0x86, 0xbe, 0xc1, 0x29, 0x94, 0xbf, 0xbb, 0x35, 0x55, 0xbd,
  0xef, 0xdb, 0xc3, 0x3e, 0x56, 0xff, 0xff, 0xff, 0x04, 0x00, 0x00, 0x00,
  0x40, 0x00, 0x00, 0x00, 0xda, 0x42, 0x1f, 0xbe, 0xf6, 0x6e, 0x1a, 0x3b,
  0x24, 0xfb, 0x01, 0xbf, 0x9e, 0x49, 0xc7, 0xbe, 0x6a, 0xcf, 0x19, 0x3f,
  0x10, 0x7e, 0x4d, 0xbe, 0x66, 0xa6, 0xa0, 0x3e, 0x60, 0xd8, 0x63, 0x3e,
  0xfa, 0xbd, 0x1a, 0xbe, 0x1b, 0x31, 0x93, 0x3e, 0xa1, 0xf3, 0xa3, 0x3e,
  0xea, 0xd0, 0xd9, 0x3e, 0xd0, 0x9f, 0x98, 0xbe, 0x2e, 0xf8, 0x50, 0x3e,
  0xeb, 0x84, 0xcb, 0x3e, 0xd8, 0x4d, 0xf7, 0xbe, 0xa2, 0xff, 0xff, 0xff,
  0x04, 0x00, 0x00, 0x00, 0x04, 0x00, 0x00, 0x00, 0xed, 0x59, 0x7f, 0xbe,
  0xb2, 0xff, 0xff, 0xff, 0x04, 0x00, 0x00, 0x00, 0x40, 0x00, 0x00, 0x00,
  0x11, 0xa4, 0x2e, 0xbe, 0x20, 0xe6, 0xb3, 0x3e, 0x86, 0xa7, 0x07, 0x3f,
  0x34, 0xdb, 0x5d, 0xbe, 0x41, 0xac, 0x6d, 0xbe, 0x82, 0xc7, 0xbf, 0x3e,
  0x91, 0xfb, 0xe9, 0x3d, 0xe6, 0x46, 0x6e, 0xbd, 0xde, 0x39, 0x43, 0xbe,
  0x4a, 0x38, 0x41, 0xbe, 0x41, 0x87, 0xed, 0x3d, 0xc0, 0x48, 0x83, 0xb7,
  0xb6, 0xc1, 0xb3, 0x3e, 0xa7, 0x86, 0xa4, 0x3d, 0x39, 0xbd, 0xf2, 0x3d,
  0x31, 0x6f, 0x0f, 0x3f, 0x00, 0x00, 0x06, 0x00, 0x08, 0x00, 0x04, 0x00,
  0x06, 0x00, 0x00, 0x00, 0x04, 0x00, 0x00, 0x00, 0x40, 0x00, 0x00, 0x00,
  0x00, 0x00, 0x00, 0x00, 0x92, 0xeb, 0x82, 0xbc, 0x00, 0x00, 0x00, 0x00,
  0x00, 0x00, 0x00, 0x00, 0x89, 0xe9, 0x63, 0x3e, 0x00, 0x00, 0x00, 0x00,
  0xac, 0x45, 0x7d, 0x3e, 0x8d, 0x8f, 0xd2, 0x3e, 0x00, 0x00, 0x00, 0x00,
  0x5a, 0x09, 0x92, 0xbe, 0x5b, 0x11, 0x5c, 0x3e, 0x83, 0x0f, 0x44, 0xbf,
  0x00, 0x00, 0x00, 0x00, 0x99, 0x42, 0xfb, 0xbe, 0x6f, 0x96, 0x23, 0xbe,
  0x00, 0x00, 0x00, 0x00, 0x10, 0xfc, 0xff, 0xff, 0x14, 0xfc, 0xff, 0xff,
  0x0f, 0x00, 0x00, 0x00, 0x4d, 0x4c, 0x49, 0x52, 0x20, 0x43, 0x6f, 0x6e,
  0x76, 0x65, 0x72, 0x74, 0x65, 0x64, 0x2e, 0x00, 0x01, 0x00, 0x00, 0x00,
  0x14, 0x00, 0x00, 0x00, 0x00, 0x00, 0x0e, 0x00, 0x18, 0x00, 0x04, 0x00,
  0x08, 0x00, 0x0c, 0x00, 0x10, 0x00, 0x14, 0x00, 0x0e, 0x00, 0x00, 0x00,
  0x00, 0x01, 0x00, 0x00, 0xf4, 0x00, 0x00, 0x00, 0xe8, 0x00, 0x00, 0x00,
  0x14, 0x00, 0x00, 0x00, 0x04, 0x00, 0x00, 0x00, 0x04, 0x00, 0x00, 0x00,
  0x6d, 0x61, 0x69, 0x6e, 0x00, 0x00, 0x00, 0x00, 0x03, 0x00, 0x00, 0x00,
  0x90, 0x00, 0x00, 0x00, 0x48, 0x00, 0x00, 0x00, 0x04, 0x00, 0x00, 0x00,
  0xce, 0xff, 0xff, 0xff, 0x00, 0x00, 0x00, 0x08, 0x18, 0x00, 0x00, 0x00,
  0x0c, 0x00, 0x00, 0x00, 0x04, 0x00, 0x00, 0x00, 0x8c, 0xfc, 0xff, 0xff,
  0x01, 0x00, 0x00, 0x00, 0x09, 0x00, 0x00, 0x00, 0x03, 0x00, 0x00, 0x00,
  0x08, 0x00, 0x00, 0x00, 0x06, 0x00, 0x00, 0x00, 0x03, 0x00, 0x00, 0x00,
  0x00, 0x00, 0x0e, 0x00, 0x14, 0x00, 0x00, 0x00, 0x08, 0x00, 0x0c, 0x00,
  0x07, 0x00, 0x10, 0x00, 0x0e, 0x00, 0x00, 0x00, 0x00, 0x00, 0x00, 0x08,
  0x1c, 0x00, 0x00, 0x00, 0x10, 0x00, 0x00, 0x00, 0x04, 0x00, 0x00, 0x00,
  0xba, 0xff, 0xff, 0xff, 0x00, 0x00, 0x00, 0x01, 0x01, 0x00, 0x00, 0x00,
  0x08, 0x00, 0x00, 0x00, 0x03, 0x00, 0x00, 0x00, 0x07, 0x00, 0x00, 0x00,
  0x05, 0x00, 0x00, 0x00, 0x02, 0x00, 0x00, 0x00, 0x00, 0x00, 0x0e, 0x00,
  0x16, 0x00, 0x00, 0x00, 0x08, 0x00, 0x0c, 0x00, 0x07, 0x00, 0x10, 0x00,
  0x0e, 0x00, 0x00, 0x00, 0x00, 0x00, 0x00, 0x08, 0x24, 0x00, 0x00, 0x00,
  0x18, 0x00, 0x00, 0x00, 0x0c, 0x00, 0x00, 0x00, 0x00, 0x00, 0x06, 0x00,
  0x08, 0x00, 0x07, 0x00, 0x06, 0x00, 0x00, 0x00, 0x00, 0x00, 0x00, 0x01,
  0x01, 0x00, 0x00, 0x00, 0x07, 0x00, 0x00, 0x00, 0x03, 0x00, 0x00, 0x00,
  0x00, 0x00, 0x00, 0x00, 0x04, 0x00, 0x00, 0x00, 0x01, 0x00, 0x00, 0x00,
  0x01, 0x00, 0x00, 0x00, 0x09, 0x00, 0x00, 0x00, 0x01, 0x00, 0x00, 0x00,
  0x00, 0x00, 0x00, 0x00, 0x0a, 0x00, 0x00, 0x00, 0xa0, 0x02, 0x00, 0x00,
  0x40, 0x02, 0x00, 0x00, 0xec, 0x01, 0x00, 0x00, 0x98, 0x01, 0x00, 0x00,
  0x54, 0x01, 0x00, 0x00, 0x0c, 0x01, 0x00, 0x00, 0xc4, 0x00, 0x00, 0x00,
  0x80, 0x00, 0x00, 0x00, 0x3c, 0x00, 0x00, 0x00, 0x04, 0x00, 0x00, 0x00,
  0x96, 0xfd, 0xff, 0xff, 0x24, 0x00, 0x00, 0x00, 0x0a, 0x00, 0x00, 0x00,
  0x0c, 0x00, 0x00, 0x00, 0x04, 0x00, 0x00, 0x00, 0x88, 0xfd, 0xff, 0xff,
  0x08, 0x00, 0x00, 0x00, 0x49, 0x64, 0x65, 0x6e, 0x74, 0x69, 0x74, 0x79,
  0x00, 0x00, 0x00, 0x00, 0x02, 0x00, 0x00, 0x00, 0x01, 0x00, 0x00, 0x00,
  0x01, 0x00, 0x00, 0x00, 0xca, 0xfd, 0xff, 0xff, 0x30, 0x00, 0x00, 0x00,
  0x09, 0x00, 0x00, 0x00, 0x0c, 0x00, 0x00, 0x00, 0x04, 0x00, 0x00, 0x00,
  0xbc, 0xfd, 0xff, 0xff, 0x17, 0x00, 0x00, 0x00, 0x73, 0x65, 0x71, 0x75,
  0x65, 0x6e, 0x74, 0x69, 0x61, 0x6c, 0x2f, 0x64, 0x65, 0x6e, 0x73, 0x65,
  0x5f, 0x31, 0x2f, 0x52, 0x65, 0x6c, 0x75, 0x00, 0x02, 0x00, 0x00, 0x00,
  0x01, 0x00, 0x00, 0x00, 0x10, 0x00, 0x00, 0x00, 0x0a, 0xfe, 0xff, 0xff,
  0x30, 0x00, 0x00, 0x00, 0x08, 0x00, 0x00, 0x00, 0x0c, 0x00, 0x00, 0x00,
  0x04, 0x00, 0x00, 0x00, 0xfc, 0xfd, 0xff, 0xff, 0x15, 0x00, 0x00, 0x00,
  0x73, 0x65, 0x71, 0x75, 0x65, 0x6e, 0x74, 0x69, 0x61, 0x6c, 0x2f, 0x64,
  0x65, 0x6e, 0x73, 0x65, 0x2f, 0x52, 0x65, 0x6c, 0x75, 0x00, 0x00, 0x00,
  0x02, 0x00, 0x00, 0x00, 0x01, 0x00, 0x00, 0x00, 0x10, 0x00, 0x00, 0x00,
  0x4a, 0xfe, 0xff, 0xff, 0x34, 0x00, 0x00, 0x00, 0x07, 0x00, 0x00, 0x00,
  0x0c, 0x00, 0x00, 0x00, 0x04, 0x00, 0x00, 0x00, 0x3c, 0xfe, 0xff, 0xff,
  0x19, 0x00, 0x00, 0x00, 0x73, 0x65, 0x71, 0x75, 0x65, 0x6e, 0x74, 0x69,
  0x61, 0x6c, 0x2f, 0x64, 0x65, 0x6e, 0x73, 0x65, 0x5f, 0x32, 0x2f, 0x4d,
  0x61, 0x74, 0x4d, 0x75, 0x6c, 0x00, 0x00, 0x00, 0x02, 0x00, 0x00, 0x00,
  0x01, 0x00, 0x00, 0x00, 0x10, 0x00, 0x00, 0x00, 0x8e, 0xfe, 0xff, 0xff,
  0x34, 0x00, 0x00, 0x00, 0x06, 0x00, 0x00, 0x00, 0x0c, 0x00, 0x00, 0x00,
  0x04, 0x00, 0x00, 0x00, 0x80, 0xfe, 0xff, 0xff, 0x19, 0x00, 0x00, 0x00,
  0x73, 0x65, 0x71, 0x75, 0x65, 0x6e, 0x74, 0x69, 0x61, 0x6c, 0x2f, 0x64,
  0x65, 0x6e, 0x73, 0x65, 0x5f, 0x31, 0x2f, 0x4d, 0x61, 0x74, 0x4d, 0x75,
  0x6c, 0x00, 0x00, 0x00, 0x02, 0x00, 0x00, 0x00, 0x10, 0x00, 0x00, 0x00,
  0x10, 0x00, 0x00, 0x00, 0xd2, 0xfe, 0xff, 0xff, 0x30, 0x00, 0x00, 0x00,
  0x05, 0x00, 0x00, 0x00, 0x0c, 0x00, 0x00, 0x00, 0x04, 0x00, 0x00, 0x00,
  0xc4, 0xfe, 0xff, 0xff, 0x17, 0x00, 0x00, 0x00, 0x73, 0x65, 0x71, 0x75,
  0x65, 0x6e, 0x74, 0x69, 0x61, 0x6c, 0x2f, 0x64, 0x65, 0x6e, 0x73, 0x65,
  0x2f, 0x4d, 0x61, 0x74, 0x4d, 0x75, 0x6c, 0x00, 0x02, 0x00, 0x00, 0x00,
  0x10, 0x00, 0x00, 0x00, 0x01, 0x00, 0x00, 0x00, 0x12, 0xff, 0xff, 0xff,
  0x44, 0x00, 0x00, 0x00, 0x04, 0x00, 0x00, 0x00, 0x0c, 0x00, 0x00, 0x00,
  0x04, 0x00, 0x00, 0x00, 0x04, 0xff, 0xff, 0xff, 0x29, 0x00, 0x00, 0x00,
  0x73, 0x65, 0x71, 0x75, 0x65, 0x6e, 0x74, 0x69, 0x61, 0x6c, 0x2f, 0x64,
  0x65, 0x6e, 0x73, 0x65, 0x5f, 0x32, 0x2f, 0x42, 0x69, 0x61, 0x73, 0x41,
  0x64, 0x64, 0x2f, 0x52, 0x65, 0x61, 0x64, 0x56, 0x61, 0x72, 0x69, 0x61,
  0x62, 0x6c, 0x65, 0x4f, 0x70, 0x00, 0x00, 0x00, 0x01, 0x00, 0x00, 0x00,
  0x01, 0x00, 0x00, 0x00, 0x62, 0xff, 0xff, 0xff, 0x44, 0x00, 0x00, 0x00,
  0x03, 0x00, 0x00, 0x00, 0x0c, 0x00, 0x00, 0x00, 0x04, 0x00, 0x00, 0x00,
  0x54, 0xff, 0xff, 0xff, 0x29, 0x00, 0x00, 0x00, 0x73, 0x65, 0x71, 0x75,
  0x65, 0x6e, 0x74, 0x69, 0x61, 0x6c, 0x2f, 0x64, 0x65, 0x6e, 0x73, 0x65,
  0x5f, 0x31, 0x2f, 0x42, 0x69, 0x61, 0x73, 0x41, 0x64, 0x64, 0x2f, 0x52,
  0x65, 0x61, 0x64, 0x56, 0x61, 0x72, 0x69, 0x61, 0x62, 0x6c, 0x65, 0x4f,
  0x70, 0x00, 0x00, 0x00, 0x01, 0x00, 0x00, 0x00, 0x10, 0x00, 0x00, 0x00,
  0xb2, 0xff, 0xff, 0xff, 0x40, 0x00, 0x00, 0x00, 0x02, 0x00, 0x00, 0x00,
  0x0c, 0x00, 0x00, 0x00, 0x04, 0x00, 0x00, 0x00, 0xa4, 0xff, 0xff, 0xff,
  0x27, 0x00, 0x00, 0x00, 0x73, 0x65, 0x71, 0x75, 0x65, 0x6e, 0x74, 0x69,
  0x61, 0x6c, 0x2f, 0x64, 0x65, 0x6e, 0x73, 0x65, 0x2f, 0x42, 0x69, 0x61,
  0x73, 0x41, 0x64, 0x64, 0x2f, 0x52, 0x65, 0x61, 0x64, 0x56, 0x61, 0x72,
  0x69, 0x61, 0x62, 0x6c, 0x65, 0x4f, 0x70, 0x00, 0x01, 0x00, 0x00, 0x00,
  0x10, 0x00, 0x00, 0x00, 0x00, 0x00, 0x0e, 0x00, 0x14, 0x00, 0x04, 0x00,
  0x00, 0x00, 0x08, 0x00, 0x0c, 0x00, 0x10, 0x00, 0x0e, 0x00, 0x00, 0x00,
  0x28, 0x00, 0x00, 0x00, 0x01, 0x00, 0x00, 0x00, 0x10, 0x00, 0x00, 0x00,
  0x08, 0x00, 0x00, 0x00, 0x04, 0x00, 0x04, 0x00, 0x04, 0x00, 0x00, 0x00,
  0x0b, 0x00, 0x00, 0x00, 0x64, 0x65, 0x6e, 0x73, 0x65, 0x5f, 0x69, 0x6e,
  0x70, 0x75, 0x74, 0x00, 0x02, 0x00, 0x00, 0x00, 0x01, 0x00, 0x00, 0x00,
  0x01, 0x00, 0x00, 0x00, 0x01, 0x00, 0x00, 0x00, 0x10, 0x00, 0x00, 0x00,
  0x00, 0x00, 0x0a, 0x00, 0x0c, 0x00, 0x07, 0x00, 0x00, 0x00, 0x08, 0x00,
  0x0a, 0x00, 0x00, 0x00, 0x00, 0x00, 0x00, 0x09, 0x03, 0x00, 0x00, 0x00
 
};

#endif //SINE_MODEL_H